module attributes {torch.debug_module_name = "SimpleNet"} {
  func.func @forward(%arg0: !torch.vtensor<[1,32],f32>) -> !torch.vtensor<[1,16],f32> {
    %int0 = torch.constant.int 0
    %int1 = torch.constant.int 1
    %float1.000000e00 = torch.constant.float 1.000000e+00
    %0 = torch.vtensor.literal(dense<[7.447800e-02, 5.931130e-02, -0.0295143872, 0.111103386, 0.00697994232, -0.0412842631, 0.11911051, -8.675310e-02, 0.00664173066, 0.0301129967, -0.102818236, -0.0877501368, 0.0368413478, 0.01713413, 0.085271135, 0.0372803658]> : tensor<16xf32>) : !torch.vtensor<[16],f32>
    %1 = torch.vtensor.literal(dense<"0xC08C7BBC6C1DBD3D5C9F98BD80C0AEBD2EFA8C3D00589CBC505F6C3CD447DF3D9CF361BDD03A613D64498B3DFEA8DFBDA40D30BD0C51FE3DC2B6D3BD80FCDBBDECF3A4BDC4AD3B3DEE3AD8BDB2BFAF3DD0419E3C1206BC3D92E28CBD7277DABDC031D63CC8C8D9BD94B7EBBD5A70813D8A2A823D108BCC3D9A46E83D909D67BCF0068CBDC02FD53CC097933C9C1AE73DCA1A9E3D78867ABD4C9A82BD0052FC3C186A26BD788BBDBD7C3CC63D3010AC3CECBC28BD5473093D425CD3BD8C9348BD048C68BD42FDB33D8C3295BD909F473D7013D23DA424833D80DA8E3C603DA6BDE041E73B3848C53CD4716C3DAA45A53D002E88391AEF8BBD10F2D5BD9C811FBDB4BC5DBDC08DB5BC60864BBC50C72C3C944908BD4C87F0BD6010ADBBEA588EBD70E6673D7066683DAA5CDE3DAC9D11BD707D243C78D9EFBC3A869ABD7814ECBD188A90BC2078C2BC60C2CE3BCABFAC3DE092673D86A893BD94FE07BDD4CA133D0244ACBD3EA4EFBDC06B9DBD20314A3C820FB23DD0B1753CC42DDB3DEA2DE63DB83799BC508C53BD247895BDA00E6CBC546C13BD665ED8BD46568CBD80627C3B044E1B3D503AC43C443878BD80A4A53ABA1A83BDC4131B3D50AC6CBD3C062E3D907DD93C2640DA3DA47599BD40FCE0BD245FD4BDD6C6E93D20645D3D546E4F3D7085233C5879BC3CE8B8823D60ED07BC08EAC23D9C9364BD44727A3DD48D0F3D20F814BD94D350BD506A78BC3045B4BD962DBD3D00AB2BBBB08E093D10C3E9BD684AF53C08036F3D562C8A3D1C9E49BD86B08A3DC055FB3DE8549B3C801E4D3B28101FBDC4C9DA3D1034503DB441A63DA8E4D53DF841E73CF834093D180EC6BC8E41A83D124D8D3D98F4A73C10803F3C70FE09BD16F195BD70B3A03CE240F03DF895F03DE0DA6DBDC44892BDAA1FB2BD407CB0BDB86FAABCA8A72D3D304A7DBD60F7D5BC52CABBBD429AFFBD704F61BC5041F83D80EAB9BAA4C304BDBAC7863D9650D8BD1020E0BD007F9CBA6277F4BD68C708BDEA3192BD68EE8C3D646C2C3DF00DAABC9AB1A6BD30A26BBDAA1FD13DEE69A8BD50574BBCF0DA9BBDE08B993D00A3BFBC9072ABBCE02574BCBC1CE83DE4F71E3DECD82D3D646885BD34E107BDCC1F8C3D50F6B3BC308E32BCC06E9BBD04C7CC3D4861D6BCA0F22DBD7060B3BDA6F4AB3D30E2FABD4C6D363D4C1C5ABD0047D83A3C9EAFBD8CEBC93DC862DC3D906624BD2477F03DDCE6723DE85DD5BDB875B1BCBCA10D3DD61ABCBD8C53C8BD607110BDE80379BD783B573D10B4303D4A8A953D6C77D8BD0873B23D30059B3DF23A9C3DEC806CBD3A31BABDF20F9E3D0004413AF001E43D80475EBDD480C6BDEE3D9C3D7A1AD3BD4CEB7DBDE8B4FEBDBCAFD13DF882A03DB0E04FBC3023A7BDB235D0BDD01D3A3D6A40EEBD88F2B03D90B5F5BD785EA23C1A9F8B3DA20A813D3006373D964FDE3DFEAEF03D92A4E93D3006C53C30E8003D3633C73DBA6BE63D64AF53BD645C293D9C2B89BD80198A3C08DDD53C1402D73D24326FBD981A7ABD68BABEBDFED4803D0049253CB483D13D2244CA3D12548D3D402E503D00ACF33CE4B9F33D4608923DE86A493D2C58733D6810FFBD407A343DE83A963C88FA75BD5268AABD1804D4BD00C479397C94F13D687FD1BCE08BC4BC2A1C8D3D903C5EBD423BC63D0CC2D33D52E6A23DF81DC0BDD89CEEBC101CD53C604ACA3B360AFCBD108A513C3098273CA8807EBD5870EABD901AF03DF04CF63C4255F0BD30F5ECBC1621E2BDA031BDBD9424B03D14C1B53D203451BC70C6E03DA0B081BCF8DCBABC2C91103D988DDCBD3613F23D00AA4ABC00386D3ACE7B9CBD00B15E3C880D51BDFCA026BDD66FA23D2C0C773D8CD383BDE0B392BBC0825E3D40E47FBC80DFCA3AB4835C3D5C78D33D744E9D3D40EA9D3D34AF46BDF01B80BD78D3FFBD6405F7BD184D15BD882C1FBD50DA91BD70E8D13DD0DC33BC80BD9C3C4003AE3CE01E5EBD707CB4BDFE4AA0BD80110F3CEE49B3BD885E6E3DAA21CDBD24D66F3D5CDD7ABDD824EFBC405AD13C60A2E33B5092CB3C08356ABDAC9217BD4E79F9BD685372BDC2E9B1BDA815D1BD708E363DDA50D03D1C1B3ABDC81A3ABD90572C3C40CD1B3C084C3C3D7C100D3D52D7D6BD068CA5BD0825423DC24BA43D501F47BC283C8BBD000C263BEE22E5BD1EABFCBDFCE3183D2CADCD3D82C5903D7A60A13DDE81C83DD008F73DC274AD3D082219BDB02D503CA8608D3C72978ABDDEF9D43DC0BA27BDD0E4FFBCE6E4D33DB823D0BC407035BCC4A3EABDDC579BBDD8F2E03CE48227BD38A8B2BDA8A689BCACC5F7BD52A5B4BDDA5DDF3DA0FD6EBCA0C499BB3E93B9BD7A40B93D686FC8BCE6C5CF3D406B6E3CB2FDDBBD264BAEBD2E8BEB3D94D1293D309F703C40829EBD20342E3C24E8D9BD1454BB3DA42C403D4811813CC80C9B3D0057D03C40EFE53B141657BD468B963D80A3923AE0599ABDE486A43D081F9FBCC45D523D745865BDF02F49BD642F80BDB2598A3D88C5C83D109815BD705B863C8EBEE63DD065EA3D744911BDF8585B3D181A97BDECC2153D1487CE3D9C16E03D98B21B3D1064543CE043B4BD2414CFBD8032E1BA5E6D9DBD206E743C4AC4803D70144DBDE630CBBD4438EFBD324ACCBD44EF853DC88291BC24316CBDF694B13DA40CDDBDDA44BDBD46E6AFBD9829EFBDE8458BBC3C1B833D84AE92BD005B3BBA7851BB3D803ABF3D84D087BD52DCE5BDC47F5ABD50926FBC8079453BA068983D208C18BC9CB643BD8048D13D0083B53B6029D23B84E3333D406669BC182D523D689E783D8099DDBCC891833D103161BC80D0B13A6ABDFD3DAC0D4A3DD458933D02EFA1BD141FE93DC0AE963CAE49803DC01E5EBDFCC97EBD00333A3B90260D3C1AD6CC3D927D823D12089CBD70467E3C64080DBD00409C37A0B74FBCF2EEA33D005C2B3C003CB8B920DEEFBC0C8AE0BDC4264EBD4494953D5093C2BDA627823D1812AD3DA01FA33C32C3AEBD202A97BB96A4AFBD706B82BCD47A99BD4460FB3D1044E1BC707A65BC44E765BD48D184BDF851E4BC66B5F93DEC38EFBD3A8FD4BD94C103BD0453CC3DB8C4F0BC84B248BD0007C5BA886E8E3C4CB23ABD6877CA3C5886C73C1873CD3D3081233D50CE233C4679E83D9C19DEBD38649B3D40FE973CA8D122BDF88FDC3DD04C81BDB056E5BDEAFA933DC03699BDE8F3D0BD58AD8B3C400086BD8267C73D6847DFBD68E5EBBCF0DB983D0AD0EBBDA897A23D7C7075BD400F753BEADB953D7278E03D64323CBD4E5A803D1CA95A3DC4D835BD080CBC3C1201CDBD829CE23DB6D4F33DC0666BBCAE83EB3DCAE4C3BDC6D0A03D8CB304BD3EA3AB3DB86A8ABDD8FEF93C4089353C9656843D4CE48C3D20FF4EBCC4970C3D58F5D13CB0286EBDD8AFC6BD401E8ABC54C8363D38D1CBBDF0711A3D4A1FDCBD6E54FE3D805E88BD38A102BD405F513B00FC18395A029ABDBE8DEE3D2E7187BDD0814B3CFA9A803DF04A17BC60AEB2BBE05E243CD495913D7EFEA03DEAF188BD641CDB3D46228DBD2C95ABBD707C02BCB04B063D787376BD90E25D3DD027B6BDC4083F3D9C6DC9BD4CD73DBD58D1C5BCBE11DEBD30C9F23D7097223C480C963D1A5D9F3D80B5CEBAC217F73D184DFCBC800D30BC0E3DC53D9A2A943D2CEA80BD08E1143DE877BFBC40856BBD28442BBD5C3D37BD804CA7BAE08F7ABC085BA4BD644890BDA0ACD73D7495A43DA6CBFEBD704EDCBCAA3DFF3DFAA5FF3D14EFD63D886FCDBD40D325BBDC18923D80FFF93B402B873C1C16F1BD38BDD43DD0F43B3D9E55CB3DE09A953C389921BD960E8B3D70AE02BCF898A3BDCC8344BD0CFF5A3D6CEEA63D4A6A963DB07BE2BD4094513D060FBEBDEA75D0BD600672BCB88E8B3D00BC3DBCEA1FF03D4898D43D0A26ED3D661DE43D00EB0DBCA8321B3DE263D43DEC4ED23D86D6DB3DF094573C0C5CF93DD03D013C3C0DF03D804D1EBB608C9F3B000CE23D0042673CF04C603D40C061BB0C8E5CBD42FCF4BD0007D43D94BB2BBD4237FEBD04AC8EBD14F1D8BD8A24EB3DC40EBB3D40997E3DE039DDBCA0219D3D48498C3DB09D613C0886F0BCF85D86BD88BE41BDFCE03B3D20B608BDF4FB1FBD808ECB3B007961BAE865F9BD9874523D10F7663CAE42A0BD440DEDBD7000B1BDF4E4E2BDF4E004BD0E3DA53DC056F2BD743E6FBDBADAA63DD062CB3D2C84053DFE80DEBDB092EB3C7C2C143DC83195BCC425923DC2ED9B3DC8FBDABCBE57E0BDC8E4B9BC4AE6CF3DC68A873D40B18DBDF8821CBD482BFABC00AC633A24B3223D4427653D049BFBBD3021F73C682274BD7402803DA41CD6BD80BFFF3C6850EE3D626F87BD18BD803DE0D5BABD1EDAA23D88F0ECBD8212DB3D9E75C13D506761BD3863E63D3646833DCE3EE6BD705677BD32D9CB3DB4A3633D2CC73D3DC0650ABB8EFEADBD5052BB3CF0D563BCE0A14DBCF6A3A1BDE0A6A9BB14A6C8BD30B45EBC403A43BD50D9C4BCF44EA9BD0CEB613D84F32FBD76AFDEBDF019263CECF418BD78F4C73DB8A7D93D8025423B7052163C00AA973C3ABB94BD8087B6BC9E7CE93D6CA25A3D78DCF4BC1668CABDCACFE63D4A07DFBD3CAC10BDEC72FE3DD843E0BD2A6A93BDF2E7CABD10F6D23D20EAC03CA0DC30BC04C1E8BD7E579ABDF806F3BCF212C73D4005DD3DEECCCDBDDC20633D104A7B3C90DA94BD785AFF3DE836BCBDD0D4C6BD90E22FBDB8A8AF3DE8F773BDCCE31E3DD4DECF3D180EC9BDA8B6F63CA0A769BDBE71CEBD7A28BDBD000082BB00DA3FBB10F40CBD18C3D4BCCE7BEE3DA095E1BD60DBD2BBF8F7893C2865D2BCD0D88DBCB00F093C0E98F93D20A2493CC4D603BD42D3EC3D1827B2BDBA76E23DA056B6BC18AF7D3D66E0F13DA01F12BD08628A3C80CBEABDB05AADBC6868B1BD8C55593DBC6941BD5CB6273DA048E43B00CDD6BC986EF33D8845803C4E908CBD00415EBCD234F5BD4052A13BA43E7FBD2004E73B88A2CC3CF298EA3DD47567BD58216A3D4AA79C3D121BE93D40FB9ABB88EBF23D884EABBC4EAEE6BDF8D76A3D86D4FDBD76AAAFBD8EE7FA3DC06CC93BF0DB1A3CF4D32CBD589FB8BC287CEA3C62BCAF3D201AEF3BF222833D70A0BF3C08B273BDD4DC03BD1062A33DE8F9CB3D34B5C83D74AD30BD96B9883D5A57F1BD5067C6BD2E58C6BDBE0BD3BD4E69F2BD20AC32BDF420ABBDC6A1A3BDEC40B4BD2091ADBDE679F23D3879923CF81FAABCACFDFCBDDAF9CBBD702AD4BCF462243D9ADFE5BD4E7DC9BDF4E79D3DEE56843D8C17CE3D481744BD3045B5BD58683D3D601DE63C2C4789BD30EF763C3C8DC83D70B110BDB6B1DD3DA06D573D1CA536BD2274F2BD3E18C7BD16B1B43D6CA13E3D1C4EB7BDD821923DA257EFBD6AEBDC3D467FC9BD06AFFFBD483EEDBC80C59DBA8097DD3C883AB6BDA81F653DDC205FBD14A947BDF870DDBC30403A3C70971A3C44287E3DDC8D66BDC0C91BBBB07B77BD20EBF9BC44DB33BDF631C5BDD47B883D165AC83D8646D63D8CC1A5BD98EDE33DC4D67F3DA8382CBDE2FD92BD84C798BDB86161BD3ED4FA3DE4833F3DF623C23DDE9AF23DD83C223D50A0EA3DE4D69E3D18C5D53DB61AB9BD0852703D2898323DD037C5BD846D583D60E9C8BB00F8AB38F0F45A3D923CA3BD40BF74BD248F38BDFA06E63D7429243D3AFE98BDE0DAF2BBBCDBAFBD20AABFBB403C953C20F4AB3C8C4858BD9C33A8BD543119BD5067E43CCEE8CEBD06CFD8BD9C9AD83D50C9D33C0864B9BD0896A93CC251EABDD6B0C3BD94617EBDB8B932BD6272FBBDA0DB9A3B"> : tensor<16x64xf32>) : !torch.vtensor<[16,64],f32>
    %2 = torch.vtensor.literal(dense<[0.0255056079, 0.110043354, 0.0425293744, -0.129845485, 0.108057186, 0.136153162, 0.0172416642, -0.154936433, 0.0772946178, 0.0346650444, -0.0449660495, 0.103232063, 0.00905074086, -0.0924473852, -0.100828327, 0.119089521, -0.0201822706, 0.149326116, 0.0948358848, -0.119723201, -0.0727062449, 1.88986465E-4, 0.104505323, -0.0621459708, -0.126813605, -0.0548047684, 0.148962766, 0.146732077, 0.0976949185, 0.103803851, -0.159224063, 0.131615877, 0.0272392966, -0.0872645452, 0.00788327307, -0.0421057343, -0.0493942723, -0.11177218, 0.0324585736, -0.0645970181, 0.0228526313, -0.125707403, -0.148480073, 0.0202974379, 0.167197764, -0.013343418, -0.00858855806, -0.0571470782, 0.11386171, 0.142038286, 0.14824146, -0.0716099143, 0.043244604, -0.0914163663, 0.0430769436, 0.163659692, -0.113636836, -0.130022287, -0.125313029, 0.149255753, 0.093711555, 0.00699469075, 0.00811552349, -0.0551081821]> : tensor<64xf32>) : !torch.vtensor<[64],f32>
    %3 = torch.vtensor.literal(dense<"0x9867FC3C74232B3CBA4F93BCE21A22BDA3840C3E6354143E07D9F23D0DC20EBE5A78F23DD28F3BBDB3A8AF3DD40D2DBE682517BE412503BC53BFCFBDB677E13C10310FBEE98B953D0D9D94BD1BC9703D344F01BB5CFEEEBDD30E27BE35C80F3EB185CBBD92F689BDC0FD34BE6388083E1ACEC53D0E3EABBC71542D3EF2260FBEEC7AA93D6B830F3EBC4CBBBCA4C032BE3313643DF164D23D6C110C3E85F7443C6C55103D7421A0BC62739DBD7D4733BEE282023D0442123ECF9E2BBE39C9C03CB172E43DE15A25BEDCCF033E109924BEAC92C5BD018AD9BC04300ABE38EC0C3EC4B3D13CFA636A3DF887243E157834BE3131FA3D9925443CF71A7B3D69CFCDBCDC0DAE3D90EC153ECB6D223E7EEE30BEB527CA3D899485BDF19A24BE68ECFABB8BDDEC3C98B227BDA474E53DAFBB04BE8C7522BB6FCABD3DCEA7B1BDD32B013D8A262C3E0CB291BD567B91BDC55423BEE111E9BD3342603D183CD4BD93C1B43D75AC00BD7AB6573CA88D99BC9124AD3DF21BDC3DC1F9F83D17AD3D3D58BD1BBEB85E8FBDDC6AEABD03E89D3CACFFDD3DAD700BBE771516BDCD951FBE0E51AE3D06362C3E4B1CD9BDA479E23DC3A30CBEBDC4DB3D8EC1BCBDAFF0E9BDF1960FBE4C15253B4F81A53D0713F83DA6F2DB3DF9CC80BDD7211EBE23B2FA3DA816E83D824B303D7EBA1E3E6EE1C73DA567073E9FD8B0BDF5B3ADBCE22303BE1B49FFBCFB5A23BDC9CAF6BDB7E01FBEBE8F78BDBD47E3BD9A95303EC6AEF7BDBE28BE3D06B6763D495221BD5790993D802FE9BD127ED13D05019DBD424716BE94D0BFBD88A909BEB35DAB3C706834BD6BF20FBE48300B3D756D26BEA0EEECBD8B65EA3DF599903DCCEAD6BD6E93183DCBAA8A3CEADF073E3F41EF3DECBA15BEE41670BD27FDDBBDE232B6BCBC6E1FBD765C2A3E938557BD1E6C0F3EEBB8FFBC35D8C8BB0EF5CABD5698313E07C0183E9ED32C3EC08FAFBD0DFE74BD4F806DBC23FE4A3D190D09BE98D6223E7ABF513D7615F7BD956C6C3DD93050BC841D0BBEA938A83DF3DE27BE61DC093E2BBB0A3EA7611E3E837E513DF3B22A3E7202C1BD6C7F0CBE708810BEB8177B3CD6C9293E1098F8BD0D2C02BEEFE02FBC28EB423D183291BD530D243D149110BE571BF13D7F07F13DA299AE39E2050C3E38F3793D441119BEDB637DBB81F2D73D651B883CBC22303ED76AF8BCB89FA83CE60E8EBD94424A3DB3A32D3E22F7ECBC5D00EE3DD8DEB8BD6D45533DD36481BDC2A082BC4EBF083E298330BEA96E1CBE5AD8873C316C10BE54A3093D4D81C83DD6DEC4BD7556063E859020BE4A2B273E478ACFBC3D29303C45B1163C83542C3EFD197C3DDFFB1EBDC07EE13D493C093E2E6E863BE9C6313E9A809ABD61D9D7BD5C033D3DA4F407BE89A3C73D4A0B9CBA7128A33CBE111C3D8DA305BDA1A902BE70830A3D7B6721BE29C7B9BD7B88483CE423243E24AE843DDEAAE5BB7317D63DA00435BEA6DA14BEBA801C3EF880333D62A13C3CDAF308BE4BF188BB32A61BBE248F2D3C6DF20EBE51809A3D8C9132BDCEB4043ED18FD3BDF2A229BEFC99BB3AECB252BD91DA9FBB661E17BE2EDE0F3EF177DD3DC3E10DBE3C5C18BE71FCDA3D2C53183BF5E7E03D596D913C3BF91CBE538D1C3E800194BD086889BD348E59BDEFA1B8BC23CDB1BDA6399CBC1DB9273E76A933BE87F8B93C2A18A03DD4F9DFBC144002BE514F59BD964505BE34D9803CC41C53BD9E7915BE4762A23D81E55ABDCF66F6BD366CCE3BB00F32BEB2AB8BBDC0552D3EC41EF7BC388A0F3D8E180E3DCF9DB03D736EFF3C62BF8FBCBD50C2BD7560C9BD7B6D13BEECB530BEED7C61BDDF95EEBD32A29B3CD29C94BC969F113E8F0F283CC9D4953DB00F7D3D0FC004BD43011B3EF6E5B13C0E7282BD65B4EFBDC56FEBBD8C59CCBDB4EC1C3DA0510B3E8183ED3D241BE4BD25E4C33DF05E28BE39B17CBDA6CBD0BD15F79BBD407681BD4F8C023E9B5A073EEC2DB0BD6A1700BD550E11BDC2E722BEFD7A173E0BFE2F3E4EB69D3D1C1AA8BD0D802FBEE83CA53D743C123E78CC8ABCA60BFE3DCB5F00BE8357EA3C062629BDB4875EBDFF603BBDE6E8123E8D058ABDC43FDC3D23E124BEEC7417BE388811BC20E8DC3DD27E223E82EBF0BDEDF4153E19C1083DEA1E12BE7F3645BDED1211BD622E20BD51B6843C5DA00BBE951F1D3ECD5858BD782E243E8629D8BD0A21163E06402FBE4D7254BDC80019BE167A073C28E48A3CC3DD363D1380133D7C0B0DBE7C5B0A3DF8BB1DBE758AFB3D4815743D6D9B8ABDAB25FEBDB0B8B53C1866B83B9F9B143E341E7DBDF714813DE6BFAD3DBE96E4BDC7A325BABC5C063E1166A63DE7E0C03DC68C323DA90586BD287FD9BD19C3023DBE80053EEF483FBD7E3614BE2DB2853C56292FBE0729F33DE0182E3E5553EB3C235303BE2B4CA63DC9ED68BC64CC84BD9E05093ECC38023EA10CBFBB226B8CBDEDD1453D147AFABC4E5ED13DB2026C3D86C95B3D7FA921BE27CF1ABEECEB58BD533949BD4792DCBC00C4EC3C7BBC473D3D15C33DB147A9BD4C56CD3D9A76FB3CBF1A813D9E662E3E5B3B28BD54CE2ABE461D1E3EC7EC12BECC0912BC043F00BE2A49E33C0050BC3DF46F0A3E430C94BD3FB52ABE65AC97BD57B609BE150D13BE9F2B3DBC0EF60C3E52A5153DC82F2FBD47D2E33D13F826BDE7A85CBCC4FF19BD70928FBDF0A0ACBC7BB7CF3D30B4FF3DF92FA23D8BC5A7BDC133283D7FD278BD838939BDA0276FBD2EBB0B3E2A612D3EBAE8203D7FEF833D3A44433D57DF1FBE9DF5B43C2399DEBD2E76F7BD427EE4BCB0D5A0BD79080D3EEEFD003D3BC5C1BD331989BD0A3D19BEB457AFBDFC1EEF3DC677383DC6822C3D02B866BC6B602DBE3E44273DA63B7BBDC6DE063EAAAE7FBD3978ED3D250400BE3D8B263EC246D2BD0B002EBE18E3D43D10A1E83D5C5D233E52695ABD1BE5143ED0A6023ECC4EC03D83D183BDFE6D18BEEDBBFABDCC4629BE677BF23D040DF83919F1033E34B1FB3D8C67B73DA033CFBDBFC0DABD7B60863C22D2DD3DEA4B333EC2AD123E0601FFBD333B63BB95EEA63D264C033E6CACECBDAC8233BDBDC9713C183C333D9048C23D1430DCBB3CDD8BBC7177A53D854EC23D656C183E40952A3E33803B3D41E8D8BD87CEAD3D683DE8BD788B3FBC3A8446BDBED381BD9FC303BDC58ECE3DDEDB023D28D17B3B6E94D2BD0F4327BE2759263C31B2283DE1B0B23D15F55A3DC4CDB53D9C73F03D306F793D510D843D98421DBEBCDB2DBE7D5DD33C7D5121BD94D22A3E2E967FBD141A2C3D696D183E3050EE3DB88406BC2D6B0A3DC4E79EBDCC54F03D7C734DBD6273C53D0D425A3D1CCA9EBC756DB73D08222D3E7BFAECBD302B03BE915BBABD3C580D3EFDF330BE15B017BE76A583BD291CAB3D628E2ABEE44EB43D33517EBDD6178C3C1A3A443CD1925ABD5E6A00BE72692D3DF72702BEF10F233E05EAFABC57EA67BD53873D3DB7EA133DE43BEABD8B3EFF3C906786BD4494EDBDA1B125BEB3BDA33DA24AA6BDE2C5843DFBFCE1BD3E972B3E37400FBEE4092ABE8D8800BDAA7F29BEB40B9D3DDC8D2A3EC27F21BDADCB1A3D554A42BCE3692DBD9F51A3BD822A60BD9C3811BEA99D683DDC560C3E957C063EA7B8153E1BB8053EBCCAD63D3D1DDA3D2B900C3E1A94FFBD8DA55B3DF9BD973CEDDFC73C746D143E39CE693D3B0DA9BCB8963E3D48AED63DCE3AF33D24A0343D1D86813D61F3BB3DD54839BD4AC8E53DCE5EB3BA4D60803DF37208BE16E96FBD79B763BD3548F53D0DFD32BDF044093E544B913D02371DBE66442DBE7090B3BD4ECD80BD0F42DB3D7BA8153DFF8034BEE4112B3EC808E83D4DA8B33CB4A6FA3D9528CE3D6039653BFB4FE13D1172413D8216883D04D20BBE2A0D9F3DF929E13D96C9093E2229243E2C74D93C3A13D43D247A21BEA909AE3DF49627BE678705BEA498BA3D8D8EC13DCE37FDBDB087CE3DC68641BD02D11B3E9CC1B4BDE062BDBD9A13563DB7D0ADBDE8E4ACBCC67C313EFF829F3D55481E3DB3E223BDDA712EBE83EA813DC8157EBC9C0F9A3D60C99FBC666A20BD0F402F3EF77307BDE12AC6BD721AA3BD50DBA43D0F25B03D1455F33DA60FE7BC08E6A23DBA56283E8D959EBD7C9E2D3E49E951BDDAADD0BD11C40CBE82541C3E9B0D08BE9B1012BE228DCC3D367FB13DB0CBEC3DC61C1D3E0BF1E6BD561126BD7A29A0BDF3DCE7BD1FE5FDBD917CE2BD9B3C71BDFFE3D7BCD39421BE0A89233E16281CBE1E890A3DCE4B03BEE803243E1AC9ADBDD5B98E3DF0B961BD5042CE3CC890FCBC02DEF4BDFF23153E1E2330BE89AD173EFA1F633CAF118A3D14416BBC7792C7BD349F3ABDF018033EECC28C3D2E56A03C840B31BE5FFFC0BD799FB1BC7F661BBE98BD003E6F4D293E16EB8A3D7D3D33BE4A7730BEE5F71ABD2471DEBD88C325BD4042063CAFAE943DEA499A3D67CD103E810BD23D9B7BCFBC89D00F3EBFC6863DF01F27BE64D690BD68CAEC3C25C4E53BD049F03D0123E7BD67E53FBD84C123BE8469ED3D0DE76B3D06B70E3EAE56323E89FCF43DDD7F6EBDECA5CBBBD13161BDB45632BD5C921E3DF70C33BE8FA303BE45EE1D3EDBB82E3D5AAC103D2C4BF93C2A2D0A3E4B3E633CFE94DABDA82C19BE4191C4BC25742C3D98A90A3E79951EBD5D1DD53D938F2EBEDE8E893D5401FE3DD4028BBCE367AD3D433E473CB0E8113EA2A76F3D29B9D9BB772C1FBE883C113ED114FC3DC164C3BDE0DDE8BB70B41A3ED15001BD04B500BEA7C8443D9DCEE43D212B64BD1DE6CD3DAF5F0A3E62DA293DCC552F3EC1C4263E50FC04BEABAD10BEEAC2BE3D50DA223EBF541F3A3AFD60BD9F49BABD8C35323E851EF33C364A553D3C18ED3C197C1EBE96E62CBCBC8F21BBE9DD7A3D356FD83D182C593D668804BAB76464BD80BE203E0D4BD93DA6FED23D6721C13D11A0143E94CEFA3CA48D20BCA9CB053E02FFB83C7099643DFA268BBCAE841DBED30EBE3C19CA0BBDE49F79BCE2B8103ECF6CC5BDD804EB3C4336D0BD372470BD0566B13CA4F4023B2AC8C03CBDA8273DB335A83C49CE2FBD6328C7BCD980873C1A0B6A3C18C619BE84A214BEB2F8FC3D6709EEBC2223463D669A01BE05DE1ABD2449EC3D7E3A993DA1502ABEAE0C98BCEAA1F23DDC8916BE5A0FED3D3F39173E9561E7BDF82D103E70B30A3EF6489ABD43958E3DFC469A3DBC07CE3DBB4C04BE2C51D9BD0E7FD13D3BB5053E3766DC3CD3F6BD3DB4F996BCE0E9B93D17D42CBE209AA03DF372F23D7440FDBD729F083D304945BC305A0CBEA3D4C2BDE65824BEFBDD2CBEE7A6AA3D1E51983DDFA888BDD1AEE83DB4F648BC61BDF93D1D91783D129F1D3D24B21A3EAA39933DEAC1C1BDE4AD0ABE6A8720BEA1EFF7BD1A3FA13D87689E3CBA1EBD3D14830B3D7765273E1B101D3E3995A03D1C8987BC986F14BEB70B1B3D3881C9BD4200083E827811BE2F49AD3DBF6C2CBE1188323ED572A53D3F6181BD94C8AA3D03E70C3E45D81C3ED34F2BBD56FB293E38CE1ABD326C1E3D84B8E4BD321B64BDA8C7553DB51CC53D7EE5D83D159CB7BD2752F93CBF8092BD4B02253DB31B7A3D5F5B87BCEB37A23DC43B69BDBF9CAA3BDABBDCBDE76EF03C57CD09BE9F2917BE85F4D4BC4167D8BDB8B816BEBD0416BC84E731BE39C6503DA62C973D31BA283EA2B4F8BD55EC1FBDB63A25BE8BC93EBC70909EBDD526233E44131B3E8924BE3D4A90E43D531A55BDF79F2CBC2E5942BDE13903BECD0E64BDA4D6CA3D728CBABD5367D53D9B14B9BD1DD4E9BD044981BBF468203EB1D028BEF95C9ABCDEBA9D3D74CEC8BDC45D853DE597A0BC44969F3DB61D053E07975CBDF45A06BDE8C60ABE1FCB11BE3C3AB1BD8D0F5C3DF33AA53B7F114B3DF212FDBDE7FCA4BA07C1FB3C7EE4C4BDB55B733D4829C73DFA398EBDBB0B4F3D35C1BBBD2CC9123E136F0CBB59FE093CE43EEF3C1AFBB7BCACBC233D814F343EE0D5E4BD98FB423D2155723C31EBA0BD62106EBD6C94C2BDF792033DEEBEB1BDF2B5CABCFB228F3D7BF5EB3CF896743D00D7FBBDF1DCDA3D6150483D8AF1033DF9B1D23DAED9563C72D2473D5E1A9FBD1E961EBD54570F3E0E8D15BE6AAD25BCD919BA3BC161EA3D73D026BE8868D03D2DF151BD551FECBC8D4E0C3EC4B5103C145E113DD149053E5B62913DF6DC03BE5B2A18BD2B6B57BDE20D0EBC61E5FA3DBADE2FBD858A0D3EBD34FABB0AAC263D824F113E00CB233EE179053E4BD40ABE4F0949BDD84C173E0401DF3CB27F90BD24160B3E32082D3E0DB7E13D8E05483D7D72843DCA5E8EBDEAFC80BCD9A5D93DFA70D8BCCECFAEBDA6D706BE48EB3BBDFB1C9CBD747F1D3EF4066DBD7FDBFB3D758D08BE0A4F873A213FBEBC1AE26F3B1AE3C8BDBDCE20BDE96DA0BDF4C118BE52C0403D513CD83DAEEE2DBE3C9225BE61991C3EAE38B5BDF2C2333E3105243DB3CDD3BCF959AE3DA35F033EBAC1CCBD3BA3353DE08ABABD5B46F23D33CE1EBE9804353D22B431BD9AA524BE49A2EFBB674E86BDFB25293E9B53AEBDD13E1C3EB6F965BC4C1DFBBD9BEA0F3E5187213E7D9A053E308F1F3E67A0DFBDA0BDB73C16602CBE4D6C023D042C1C3D4A09C8BC0713BF3D0689113E3F8C3E3D0DE89A3C6DEC34BE7CD6D53C70D9FEBD98E2FF3DD556C33D615BCD3DDCFF2BBE634FDABDF2A9EE3DC931A43B0DCCE6BD6E7891BD1BE35C3DD14D24BE00292F3EF98DC8BDA79086BD66879A3CA9771FBE0D91E0BD4CEA3DBDF78F30BD6AA8A43DB90B593DD1C2FFBC13CF32BE82A963BB5558EABD95C9BBBC0F43B0BD72CB92BD25196C3DF7C1AD3DABC016BE437FBABD612CE23C3FA87DBDF390043DBDAEBA3D1A5231BEDCD7043C24E83B3D98E0C63D3A03283E015C47BD86AE213EB8DA93BB118F103ED550A83D7EDF263E3AF0F2BD14785A3C41F7F0BD0C8365BDCC2647BDFB4836BC97227FBD4D83BBBD169709BE06C6F03D903A8EBC5F5ACF3C626EF9BDC880A2BD973A273E7F81EABC0F6B5BBC7629D53C0A7F3D3D9AAB2D3C91C6243DED4DD2BDAB6EF53D52011D3E7C38303E786709BDA720F5BD42EB913DFEB0CF3D452517BEA3F8D2BB308665BD282DF4BDBD15143E904666BDE9D324BDCFD12BBEE32D54BD117B6EBD52902C3C0C20CDBB1A1C473D3D2A093E5BCBA9BC9BFBAF3D7B37293ED47BC0BDDFE4DFBD0298933D1340B03D1430BC3D2F0466BD07E7C1BC5829203DEB9591BD30F4E9BDBDBFB03DE58D2F3E00B3653CB278E13D95FBD53DA212C7BDECB8503DDCE0333E5261C5BBA9DCFD3D96879E3DCE319E3DA4E02B3E5B7709BD8B8A0F3E3C0F8DBDFAAEC83CCD97ED3D581EED3D990219BE7EB01B3DCD1B13BBE587163E27A8713D8AA9B33D0238433CA46B663C66B97CBD679C873D1D1D1FBEC49D34BEB7EF29BE1E3D003ECD5920BD24093FBDDC45E13C1206D83C7EAC7C3D26758BBD62225BBD98F6B7BD939BC6BD3DBB0ABEB9D00CBE79816F3D94EDF63CE3E0C13B42DF093E8F89FE3D84981B3D3F6D8BBDD893FCBDC3B916BE06FFF6BDDBCA34BEC40A73BCEAD7FC3D50DB1EBED6B987BD844F89BBFC38F93DD070733D29AE233EAFACA13D21FE953D134A34BEBEF9A83C7A5B5CBC7126C93DFA70A139E8ACF5B8E795A5BCB2A60A3E4941DBBD47B68F3C9130FB3D47FB5DBDBDB1E1BCFEAE133EFB4CF1BD4FA7FA3D1BD7913D56750EBEDCA31FBE134585BD96E8433D15104B3DA3B20FBE9D45033E256B7DBDE1BECD3CF39907BDAE9E02BD2C0CFB3D7298EEBD8342AFBD38982ABDC1737F3DFAB4CABCBA632FBEBA3F24BE21AA8ABD3F70A1BDC480D13C08D625BEBA4E2A3ED9DB97BCED9EC93D0B20BF3DEDFCEB3DF956233E59732C3E19021FBE1574A9BD5CD7D63D6BA82EBD25A22DBD2787F3BD37B476BD666D18BDB52C203EBA0EDB3D0FCE16BE225A21BEE1B902BEB9EC073C589A9439F14F1DBD5A9FA4BD4F58A9BD3F38093ECF55EFBD389A80BD299FCBBD1D2000BE05CCB13DFCD92DBE8166183DB89F913D8D8303BEE27D42BDB038063EA2FFA63C6D0FC3BD0C6AF8BD8818D6BD1416A8BDCD605CBD208B26BE0597403D1FB0B8BD437382BDD163D8BDEE6B31BEB1A5FF3D13022C3E5A99463DE65E193E2A0810BEBD65DCBDAF20B93CA8E22DBE2E2210BDC782163CE4910CBED70B0EBECD5D8BBD092E0EBD3F281B3EA8BA823C9412263E522CFE3C572A843DD1A2DC3DCDD5483D8C36DD3CD362003E769C13BE5E79F2BD2C2B10BC343F273E4F82E73D30EC27BE6945B2BDC457E23D39B7DC3D5AE43D3C0B8EEFBC93B633BC5734EDBCD664BC3DD78DDBBC0627203C591C31BD5694FF3D8387153E183D2A3E120E14BC93781A3E98FFE8BC66EA08BE42E3763DAACC0DBECBE0CC3DBBAB1C3E71E901BDE1B9D7BC6C146B3DA322F2BDACE826BDEC8D16BE16E826BEEE41B0BD7121FBBB230A923DE7DEDD3D275728BC0640093E92A430BEB2252E3EFF59A1BB5ECA88BDA361DFBD19DDA73D1A0A173CFB08E63D5A67003EA1DFF7BCEF78853D83C92BBD470319BE568D06BDAAC130BDADD611BEE092943D42E2343E13962CBE9FE097BDF0E8D03D1FF11B3E67231F3E4E5F353D7040AE3D2D72CEBD9C93163E9DB4DA3D92BB223E9B6BB6BDE72523BDCB0530BEBAAC3ABD788AD13D4CB572BD805D4DBDAE47E4BC9E4E2DBDB8B46EBDD20C1F3E1155BF3D6B84A8BD582F153D00D8D03D342C72BDE9FA2EBE8F6AF7BBC8811FBDFD69333E35408C3D1B2C1BBEAFDF143E1B2EFA3DAC5D9D3D4620653B42F33F3D6ECC02BE708FC53D6F768C3DEC0881BD035689BD52B950BC5852CABD4743D63D677C22BE43D413BE746BBE3C9B05B4BD968E10BEBB7306BE70E5D63CFB52623D55B5063DCFCC02BE10CDF6BD9CF226BE8ED084BDCA8023BD1AAC85BD9693A63D1D6F33BE9AF3B03D8F4BD5BDEC2C03BEB1B006BD70C0D83CC6AC26BE8B62FCBD791F2D3E5595283EDFED103E7B89ED3D1150403D0A87173D48B2453C0C2BD83D7D9E9ABD1B17973DA1E7293EB55C893D782CB3BDC381D93D9F9539BC9434B5BD70DFDCBB7875133DEF7CC6BD2B83F43D1D3A42BDFCA9153EC56E5B3CE4092B3E14C431BE763FC43D24E51C3E5D74A43DED65AE3D15C81EBE4E77AEBD1C4DB73D7C25F53D00F8063EDC68E6BD4B3A3DBD9FB5D13D41B1BBBD447E343E72F8853BADA558BD0E57B23C594705BE3147363D9091D1BD171A8E3D469218BEF75AD83D9F57C7BD5A6CFFBD168E803D89A8703DD15AA0BC1C4C8E3D82EFDD3D564727BEDE32BD3B650FB63DE704273E83CEE73D54C6D13D8611D43D227EDC3D766F0ABEEA140FBE4A08E3BD840913BEB7E1333ECF46A0BDDAE7A0BD3BD41ABEF89D073E4C1426BD64DF6E3D943D84BC2647FBBD835DB13D59A1103D44E7C63D2F9F96BD71A0323E1AC6E1BDE7E811BE7656BEBDB5C470BD9B4BB93D2AD1543BC13921BD82A0F13D9462293E889B2B3E036923BD34B7D3BC10F6DFBDA3A7963C4D8128BE0E66263C3E1D03BEFAEDFCBDA6DF2ABE4773053E8A9E0DBE13C724BC0282483DB90800BE16AE13BE6CD600BEB95AC53D5BFB203E31932DBEB55A2BBECCFF8BBD4A54A4BDB999F5BD8BC7FD3DDCEEA23D9266A33D916C163E932E0A3EBC2F0B3E45F1E53D20412E3EC62014BE449C9F3D8467AA3D61ACCEBD88BF433D6E696BBD80A2A03A7F1A193EB2ACCD3D882D323E7BEF8ABD580B85BD888E30BC8AA4B03CAD40E83C7D470B3EC491E53C4BA1FBBDE24E94BD5662FE3DDDD3FDBD2A12633DC5FBD13DB4AC013E828E053E82CADDBD761A113EC824CCBDF72530BB76D1D4BDFD7ECBBD961DB33DE075813DE106BABD3CAB303E5C472BBEA353BBBD0490C23D9859263EA69C093EF4BF293DC6BA89BDF75EE5BDACF6173E1FF8243E4D1DD2BCC5B3C83D13CACD3D97D2223EB63C5D3D6ADF0FBEEC77CCBD4077ED3C7372C23D3CE7F2BC4235EDBD0DED9D3DCF0F293EBC959B3BCA07C8BDD13E47BDA8E2143E7793B9BDA167213E7FEA30BE6C7A0EBC9FD91FBEBB4EC0BD75D21EBEA23259BB1689A5BC964442BB750699BDD74919BEC0C205BEE674223E2B5A803DCDEDFEBC01361E3EF4AFD83DA342B23C924D37BD3D0E6A3DA457FEBDE73DA7BAE1F5D6342A6618BECB24413C6ABF223E242E45BD0F86F5BC2C5632BC5619B9BD773B86BD0BEF943DD145723DE765FC3D67BF20BE4A4A33BED92CF4BD709338BC27F2193E2704293D25B233BEED3DECBD08F7103E83C4FCBD7D4FB6BDED789EBCF120CB3CBAAF1F3ED64B20BE5DD90F3E483512BB8662213EE4AC41BD480321BE49C496BDD342453CEB7D403BE126C63DB48B9BBDD70FB8BD4D1BEEBC4A95933CAD52253E981B10BD20C8E73D41602DBE167319BECB23F93C40B1C43D95F510BC63339E3D23AD033E1F9DC83CBBD5A9BD9EC3B2BD01BD87BDEB8BB5BD3FFD113D4AE5DF3D0BCE063E1C2A323ED0E1113EEBDC27BE8B2795BD309B113E938CBFBC5B25343EC34D003EAC0E0DBE6CBCDBBDE05BA5BD256B90BD994AB33D29C018BEC2E91B3E758034BEA0FC213EEC09F23DE2378F3DF6B92C3EB11E1A3E8C8F1F3EBC56193E06C5CDBD7A416FBD8E452C3E45B6BBBB8B8DF63C7E8DF3BCA962263E3A5FA23CD3A600BEBE1F48BD9E22263D59ED78BC59C0C7BD7991C23D7883CCBD36C5203E1B2F243EF3B6013D5CD9D0BD157D21BE254808BE7CC1EDBD576784BD609DD0BDD54E27BEC3090A3E321A203EB2AA7D3D118FD93DF84ECF3C0B5D58BD6672133E159E06BEB10BEB3D36248EBD840A33BE563422BD1F7D12BE9E4B183EAA32FDBD26207D3DD67F063D8752603C84A004BE83BA193E965BF5BD7AC7E23DFEB00DBE000C00BEDDF9093E4D57253E11E4783D767DC3BD7A588DBDFC8E9BBD18F2DF3A4E09843DC64C093DB7932A3EAA9810BEF38909BE11F1013DD31859BD0152A23DC7CD37BDC5E98A3D4501B33D66544CBC8EC48F3DF86F1BBE3754173D73E9AEBD1AF521BE157EE4BDCBE60A3E37C5AF3D8210413DC1B4A6BDB42C153EC244433DA2A5B23DE6D924BC7C64203E5951143E20E7113D0EBEC8BD00F432BEC669EFBDEDD7C13D9349583DDFCAD53D94A9133EF3D0DBBD0270B13B408E6E3CFC3F1BBE00C7D8BD2FC18DBD287C603C4A63273C0CD013BEA6A0DA3CF93ACBBCF906B5BDBA90D03D226981BD59A2DB3D874FB93D590131BE5397F3BDEC91083E9BB7223EFFE724BE5893323EA6AEDCBBE456123EBF12093D0A07A2BDA161FEBD05EA9E3CA829EBBDA5D7DF3D7AFB9E3BE2F6DA3DC1012BBE4B5631BE3F2F01BE9D43BE3DCFA71B3DCED1223ECB64FB3B70A21BBE5EC480BDB639B0BD5E0F0BBE44CB0ABE90CC72BD0982053E9776153E93F1313E549C2F3EE4EADFBC1809F2BD2FF0343E033CADBCE74F273E28C120BE8F70BABD33090FBE297B15BE1024AA3DFDEEADBDC9E032BD18EC2B3BE264403DFFF61D3C8BB718BE559427BE2327C13CA722333E70A0973D825B033EC8DC2F3D027820BEDF408A3DF42C1BBE42F502BE0D328B3D2DE9F7BCB17EABBD3B10E5BDA09E25BEC0BD41BDD6D4BEBD1421C4BD"> : tensor<64x32xf32>) : !torch.vtensor<[64,32],f32>
    %4 = torch.aten.transpose.int %3, %int0, %int1 : !torch.vtensor<[64,32],f32>, !torch.int, !torch.int -> !torch.vtensor<[32,64],f32>
    %5 = torch.aten.mm %arg0, %4 : !torch.vtensor<[1,32],f32>, !torch.vtensor<[32,64],f32> -> !torch.vtensor<[1,64],f32>
    %6 = torch.aten.add.Tensor %5, %2, %float1.000000e00 : !torch.vtensor<[1,64],f32>, !torch.vtensor<[64],f32>, !torch.float -> !torch.vtensor<[1,64],f32>
    %7 = torch.aten.relu %6 : !torch.vtensor<[1,64],f32> -> !torch.vtensor<[1,64],f32>
    %8 = torch.aten.transpose.int %1, %int0, %int1 : !torch.vtensor<[16,64],f32>, !torch.int, !torch.int -> !torch.vtensor<[64,16],f32>
    %9 = torch.aten.mm %7, %8 : !torch.vtensor<[1,64],f32>, !torch.vtensor<[64,16],f32> -> !torch.vtensor<[1,16],f32>
    %10 = torch.aten.add.Tensor %9, %0, %float1.000000e00 : !torch.vtensor<[1,16],f32>, !torch.vtensor<[16],f32>, !torch.float -> !torch.vtensor<[1,16],f32>
    return %10 : !torch.vtensor<[1,16],f32>
  }
}
